3DCCCCCD3DCCCCCD3DCCCCCD3DCCCCCD3DCCCCCD3DCCCCCD3DCCCCCD3DCCCCCD
3DCCCCCD3DCCCCCD3DCCCCCD3DCCCCCD3DCCCCCD3DCCCCCD3DCCCCCD3DCCCCCD
3DCCCCCD3DCCCCCD3DCCCCCD3DCCCCCD3DCCCCCD3DCCCCCD3DCCCCCD3DCCCCCD
3DCCCCCD3DCCCCCD3DCCCCCD3DCCCCCD3DCCCCCD3DCCCCCD3DCCCCCD3DCCCCCD
3DCCCCCD3DCCCCCD3DCCCCCD3DCCCCCD3DCCCCCD3DCCCCCD3DCCCCCD3DCCCCCD
3DCCCCCD3DCCCCCD3DCCCCCD3DCCCCCD3DCCCCCD3DCCCCCD3DCCCCCD3DCCCCCD
3DCCCCCD3DCCCCCD3DCCCCCD3DCCCCCD3DCCCCCD3DCCCCCD3DCCCCCD3DCCCCCD
3DCCCCCD3DCCCCCD3DCCCCCD3DCCCCCD3DCCCCCD3DCCCCCD3DCCCCCD3DCCCCCD
3E4CCCCD3E4CCCCD3E4CCCCD3E4CCCCD3E4CCCCD3E4CCCCD3E4CCCCD3E4CCCCD
3E4CCCCD3E4CCCCD3E4CCCCD3E4CCCCD3E4CCCCD3E4CCCCD3E4CCCCD3E4CCCCD
3E4CCCCD3E4CCCCD3E4CCCCD3E4CCCCD3E4CCCCD3E4CCCCD3E4CCCCD3E4CCCCD
3E4CCCCD3E4CCCCD3E4CCCCD3E4CCCCD3E4CCCCD3E4CCCCD3E4CCCCD3E4CCCCD
3E4CCCCD3E4CCCCD3E4CCCCD3E4CCCCD3E4CCCCD3E4CCCCD3E4CCCCD3E4CCCCD
3E4CCCCD3E4CCCCD3E4CCCCD3E4CCCCD3E4CCCCD3E4CCCCD3E4CCCCD3E4CCCCD
3E4CCCCD3E4CCCCD3E4CCCCD3E4CCCCD3E4CCCCD3E4CCCCD3E4CCCCD3E4CCCCD
3E4CCCCD3E4CCCCD3E4CCCCD3E4CCCCD3E4CCCCD3E4CCCCD3E4CCCCD3E4CCCCD
3E99999A3E99999A3E99999A3E99999A3E99999A3E99999A3E99999A3E99999A
3E99999A3E99999A3E99999A3E99999A3E99999A3E99999A3E99999A3E99999A
3E99999A3E99999A3E99999A3E99999A3E99999A3E99999A3E99999A3E99999A
3E99999A3E99999A3E99999A3E99999A3E99999A3E99999A3E99999A3E99999A
3E99999A3E99999A3E99999A3E99999A3E99999A3E99999A3E99999A3E99999A
3E99999A3E99999A3E99999A3E99999A3E99999A3E99999A3E99999A3E99999A
3E99999A3E99999A3E99999A3E99999A3E99999A3E99999A3E99999A3E99999A
3E99999A3E99999A3E99999A3E99999A3E99999A3E99999A3E99999A3E99999A
3ECCCCCD3ECCCCCD3ECCCCCD3ECCCCCD3ECCCCCD3ECCCCCD3ECCCCCD3ECCCCCD
3ECCCCCD3ECCCCCD3ECCCCCD3ECCCCCD3ECCCCCD3ECCCCCD3ECCCCCD3ECCCCCD
3ECCCCCD3ECCCCCD3ECCCCCD3ECCCCCD3ECCCCCD3ECCCCCD3ECCCCCD3ECCCCCD
3ECCCCCD3ECCCCCD3ECCCCCD3ECCCCCD3ECCCCCD3ECCCCCD3ECCCCCD3ECCCCCD
3ECCCCCD3ECCCCCD3ECCCCCD3ECCCCCD3ECCCCCD3ECCCCCD3ECCCCCD3ECCCCCD
3ECCCCCD3ECCCCCD3ECCCCCD3ECCCCCD3ECCCCCD3ECCCCCD3ECCCCCD3ECCCCCD
3ECCCCCD3ECCCCCD3ECCCCCD3ECCCCCD3ECCCCCD3ECCCCCD3ECCCCCD3ECCCCCD
3ECCCCCD3ECCCCCD3ECCCCCD3ECCCCCD3ECCCCCD3ECCCCCD3ECCCCCD3ECCCCCD
3F0000003F0000003F0000003F0000003F0000003F0000003F0000003F000000
3F0000003F0000003F0000003F0000003F0000003F0000003F0000003F000000
3F0000003F0000003F0000003F0000003F0000003F0000003F0000003F000000
3F0000003F0000003F0000003F0000003F0000003F0000003F0000003F000000
3F0000003F0000003F0000003F0000003F0000003F0000003F0000003F000000
3F0000003F0000003F0000003F0000003F0000003F0000003F0000003F000000
3F0000003F0000003F0000003F0000003F0000003F0000003F0000003F000000
3F0000003F0000003F0000003F0000003F0000003F0000003F0000003F000000
3F19999A3F19999A3F19999A3F19999A3F19999A3F19999A3F19999A3F19999A
3F19999A3F19999A3F19999A3F19999A3F19999A3F19999A3F19999A3F19999A
3F19999A3F19999A3F19999A3F19999A3F19999A3F19999A3F19999A3F19999A
3F19999A3F19999A3F19999A3F19999A3F19999A3F19999A3F19999A3F19999A
3F19999A3F19999A3F19999A3F19999A3F19999A3F19999A3F19999A3F19999A
3F19999A3F19999A3F19999A3F19999A3F19999A3F19999A3F19999A3F19999A
3F19999A3F19999A3F19999A3F19999A3F19999A3F19999A3F19999A3F19999A
3F19999A3F19999A3F19999A3F19999A3F19999A3F19999A3F19999A3F19999A
3F3333333F3333333F3333333F3333333F3333333F3333333F3333333F333333
3F3333333F3333333F3333333F3333333F3333333F3333333F3333333F333333
3F3333333F3333333F3333333F3333333F3333333F3333333F3333333F333333
3F3333333F3333333F3333333F3333333F3333333F3333333F3333333F333333
3F3333333F3333333F3333333F3333333F3333333F3333333F3333333F333333
3F3333333F3333333F3333333F3333333F3333333F3333333F3333333F333333
3F3333333F3333333F3333333F3333333F3333333F3333333F3333333F333333
3F3333333F3333333F3333333F3333333F3333333F3333333F3333333F333333
3F4CCCCD3F4CCCCD3F4CCCCD3F4CCCCD3F4CCCCD3F4CCCCD3F4CCCCD3F4CCCCD
3F4CCCCD3F4CCCCD3F4CCCCD3F4CCCCD3F4CCCCD3F4CCCCD3F4CCCCD3F4CCCCD
3F4CCCCD3F4CCCCD3F4CCCCD3F4CCCCD3F4CCCCD3F4CCCCD3F4CCCCD3F4CCCCD
3F4CCCCD3F4CCCCD3F4CCCCD3F4CCCCD3F4CCCCD3F4CCCCD3F4CCCCD3F4CCCCD
3F4CCCCD3F4CCCCD3F4CCCCD3F4CCCCD3F4CCCCD3F4CCCCD3F4CCCCD3F4CCCCD
3F4CCCCD3F4CCCCD3F4CCCCD3F4CCCCD3F4CCCCD3F4CCCCD3F4CCCCD3F4CCCCD
3F4CCCCD3F4CCCCD3F4CCCCD3F4CCCCD3F4CCCCD3F4CCCCD3F4CCCCD3F4CCCCD
3F4CCCCD3F4CCCCD3F4CCCCD3F4CCCCD3F4CCCCD3F4CCCCD3F4CCCCD3F4CCCCD
3F6666663F6666663F6666663F6666663F6666663F6666663F6666663F666666
3F6666663F6666663F6666663F6666663F6666663F6666663F6666663F666666
3F6666663F6666663F6666663F6666663F6666663F6666663F6666663F666666
3F6666663F6666663F6666663F6666663F6666663F6666663F6666663F666666
3F6666663F6666663F6666663F6666663F6666663F6666663F6666663F666666
3F6666663F6666663F6666663F6666663F6666663F6666663F6666663F666666
3F6666663F6666663F6666663F6666663F6666663F6666663F6666663F666666
3F6666663F6666663F6666663F6666663F6666663F6666663F6666663F666666
